-- Copyright (C) 2018  Intel Corporation. All rights reserved.
-- Your use of Intel Corporation's design tools, logic functions 
-- and other software and tools, and its AMPP partner logic 
-- functions, and any output files from any of the foregoing 
-- (including device programming or simulation files), and any 
-- associated documentation or information are expressly subject 
-- to the terms and conditions of the Intel Program License 
-- Subscription Agreement, the Intel Quartus Prime License Agreement,
-- the Intel FPGA IP License Agreement, or other applicable license
-- agreement, including, without limitation, that your use is for
-- the sole purpose of programming logic devices manufactured by
-- Intel and sold by Intel or its authorized distributors.  Please
-- refer to the applicable agreement for further details.

-- Quartus Prime generated Memory Initialization File (.mif)

WIDTH=32;
DEPTH=1024;

ADDRESS_RADIX=HEX;
DATA_RADIX=HEX;

CONTENT BEGIN	
    000  :   ffffffbf;
	001  :   00000000;
	002  :   00000000;
	003  :   00000000;
	004  :   051eb850;
	005  :   33333332;
	006  :   0008ffbf;
	007  :   df929bb8;
	008  :   b4136b68;
	009  :   00256005;
	00a  :   43200411;
	00b  :   00000000;
	00c  :   00000000;
	00d  :   00000000;
	00e  :   00000000;
	00f  :   00000000;
	010  :   ffffffbf;
	011  :   00000000;
	012  :   00000000;
	013  :   00000000;
	014  :   051eb850;
	015  :   33333332;
	016  :   0008ffbf;
	017  :   2f2d90a6;
	018  :   9a5bd6d3;
	019  :   00920750;
	01a  :   65800008;
	01b  :   00000000;
	01c  :   00000000;
	01d  :   00000000;
	01e  :   00000000;
	01f  :   00000000;
	020  :   ffffffbf;
	021  :   00000000;
	022  :   00000000;
	023  :   00000000;
	024  :   051eb850;
	025  :   33333332;
	026  :   0008ffbf;
	027  :   163e7c09;
	028  :   7edff5fb;
	029  :   284101c2;
	02a  :   00000200;
	02b  :   00000000;
	02c  :   00000000;
	02d  :   00000000;
	02e  :   00000000;
	02f  :   00000000;
	030  :   ffffffbf;
	031  :   00000000;
	032  :   00000000;
	033  :   00000000;
	034  :   051eb850;
	035  :   33333332;
	036  :   0008ffbf;
	037  :   333885fa;
	038  :   2fea99a9;
	039  :   44806204;
	03a  :   40050646;
	03b  :   00000000;
	03c  :   00000000;
	03d  :   00000000;
	03e  :   00000000;
	03f  :   00000000;
	040  :   ffffffbf;
	041  :   00000000;
	042  :   00000000;
	043  :   00000000;
	044  :   051eb850;
	045  :   33333332;
	046  :   0008ffbf;
	047  :   58664cec;
	048  :   6b7cc78b;
	049  :   a2019001;
	04a  :   84002000;
	04b  :   00000000;
	04c  :   00000000;
	04d  :   00000000;
	04e  :   00000000;
	04f  :   00000000;
	050  :   ffffffbf;
	051  :   00000000;
	052  :   00000000;
	053  :   00000000;
	054  :   051eb850;
	055  :   33333332;
	056  :   0008ffbf;
	057  :   d0d0d100;
	058  :   c365afb2;
	059  :   0c0e2a2d;
	05a  :   38101041;
	05b  :   00000000;
	05c  :   00000000;
	05d  :   00000000;
	05e  :   00000000;
	05f  :   00000000;
	060  :   ffffffbf;
	061  :   00000000;
	062  :   00000000;
	063  :   00000000;
	064  :   051eb850;
	065  :   33333332;
	066  :   0008ffbf;
	067  :   63b4b791;
	068  :   970d80fd;
	069  :   88020028;
	06a  :   20100c02;
	06b  :   00000000;
	06c  :   00000000;
	06d  :   00000000;
	06e  :   00000000;
	06f  :   00000000;
	070  :   ffffffbf;
	071  :   00000000;
	072  :   00000000;
	073  :   00000000;
	074  :   051eb850;
	075  :   33333332;
	076  :   0008ffbf;
	077  :   a2188432;
	078  :   21fc3e56;
	079  :   18013b44;
	07a  :   5c024108;
	07b  :   00000000;
	07c  :   00000000;
	07d  :   00000000;
	07e  :   00000000;
	07f  :   00000000;
	080  :   ffffffbf;
	081  :   00000000;
	082  :   00000000;
	083  :   00000000;
	084  :   051eb850;
	085  :   33333332;
	086  :   0008ffbf;
	087  :   602fa9e9;
	088  :   9213e3ac;
	089  :   98c04414;
	08a  :   00480843;
	08b  :   00000000;
	08c  :   00000000;
	08d  :   00000000;
	08e  :   00000000;
	08f  :   00000000;
	090  :   ffffffbf;
	091  :   00000000;
	092  :   00000000;
	093  :   00000000;
	094  :   051eb850;
	095  :   33333332;
	096  :   0008ffbf;
	097  :   e3560295;
	098  :   c58820a8;
	099  :   0c099848;
	09a  :   3a669806;
	09b  :   00000000;
	09c  :   00000000;
	09d  :   00000000;
	09e  :   00000000;
	09f  :   00000000;
	0a0  :   ffffffbf;
	0a1  :   00000000;
	0a2  :   00000000;
	0a3  :   00000000;
	0a4  :   051eb850;
	0a5  :   33333332;
	0a6  :   0008ffbf;
	0a7  :   6732bf6b;
	0a8  :   06f48c62;
	0a9  :   98084080;
	0aa  :   6000130c;
	0ab  :   00000000;
	0ac  :   00000000;
	0ad  :   00000000;
	0ae  :   00000000;
	0af  :   00000000;
	0b0  :   ffffffbf;
	0b1  :   00000000;
	0b2  :   00000000;
	0b3  :   00000000;
	0b4  :   051eb850;
	0b5  :   33333332;
	0b6  :   0008ffbf;
	0b7  :   e4c601cc;
	0b8  :   ed16079b;
	0b9  :   1a29c610;
	0ba  :   00c03044;
	0bb  :   00000000;
	0bc  :   00000000;
	0bd  :   00000000;
	0be  :   00000000;
	0bf  :   00000000;
	0c0  :   ffffffbf;
	0c1  :   00000000;
	0c2  :   00000000;
	0c3  :   00000000;
	0c4  :   051eb850;
	0c5  :   33333332;
	0c6  :   0008ffbf;
	0c7  :   ebc6860d;
	0c8  :   43e3eb98;
	0c9  :   14000142;
	0ca  :   1c0c0466;
	0cb  :   00000000;
	0cc  :   00000000;
	0cd  :   00000000;
	0ce  :   00000000;
	0cf  :   00000000;
	0d0  :   ffffffbf;
	0d1  :   00000000;
	0d2  :   00000000;
	0d3  :   00000000;
	0d4  :   051eb850;
	0d5  :   33333332;
	0d6  :   0008ffbf;
	0d7  :   c0293b7d;
	0d8  :   da7f44e8;
	0d9  :   0ed64082;
	0da  :   24008102;
	0db  :   00000000;
	0dc  :   00000000;
	0dd  :   00000000;
	0de  :   00000000;
	0df  :   00000000;
	0e0  :   ffffffbf;
	0e1  :   00000000;
	0e2  :   00000000;
	0e3  :   00000000;
	0e4  :   051eb850;
	0e5  :   33333332;
	0e6  :   0008ffbf;
	0e7  :   3bebc84b;
	0e8  :   92dc626f;
	0e9  :   00000234;
	0ea  :   6c031990;
	0eb  :   00000000;
	0ec  :   00000000;
	0ed  :   00000000;
	0ee  :   00000000;
	0ef  :   00000000;
	0f0  :   ffffffbf;
	0f1  :   00000000;
	0f2  :   00000000;
	0f3  :   00000000;
	0f4  :   051eb850;
	0f5  :   33333332;
	0f6  :   0008ffbf;
	0f7  :   009fcdbb;
	0f8  :   f4189c9b;
	0f9  :   fa600044;
	0fa  :   09206264;
	0fb  :   00000000;
	0fc  :   00000000;
	0fd  :   00000000;
	0fe  :   00000000;
	0ff  :   00000000;
	100  :   ffffffbf;
	101  :   00000000;
	102  :   00000000;
	103  :   00000000;
	104  :   051eb850;
	105  :   33333332;
	106  :   0008ffbf;
	107  :   fac748ef;
	108  :   752be5aa;
	109  :   05308310;
	10a  :   88000814;
	10b  :   00000000;
	10c  :   00000000;
	10d  :   00000000;
	10e  :   00000000;
	10f  :   00000000;
	110  :   ffffffbf;
	111  :   00000000;
	112  :   00000000;
	113  :   00000000;
	114  :   051eb850;
	115  :   33333332;
	116  :   0008ffbf;
	117  :   f47c09ad;
	118  :   ad0a9eb2;
	119  :   0180d642;
	11a  :   10044145;
	11b  :   00000000;
	11c  :   00000000;
	11d  :   00000000;
	11e  :   00000000;
	11f  :   00000000;
	120  :   ffffffbf;
	121  :   00000000;
	122  :   00000000;
	123  :   00000000;
	124  :   051eb850;
	125  :   33333332;
	126  :   0008ffbf;
	127  :   337a82b6;
	128  :   fb459d51;
	129  :   04845d09;
	12a  :   00024086;
	12b  :   00000000;
	12c  :   00000000;
	12d  :   00000000;
	12e  :   00000000;
	12f  :   00000000;
	130  :   ffffffbf;
	131  :   00000000;
	132  :   00000000;
	133  :   00000000;
	134  :   051eb850;
	135  :   33333332;
	136  :   0008ffbf;
	137  :   1d7b064f;
	138  :   4456f075;
	139  :   4200c1b0;
	13a  :   1b280000;
	13b  :   00000000;
	13c  :   00000000;
	13d  :   00000000;
	13e  :   00000000;
	13f  :   00000000;
	140  :   ffffffbf;
	141  :   00000000;
	142  :   00000000;
	143  :   00000000;
	144  :   051eb850;
	145  :   33333332;
	146  :   0008ffbf;
	147  :   531e7b00;
	148  :   f106d930;
	149  :   2ca00060;
	14a  :   0e680047;
	14b  :   00000000;
	14c  :   00000000;
	14d  :   00000000;
	14e  :   00000000;
	14f  :   00000000;
	150  :   ffffffbf;
	151  :   00000000;
	152  :   00000000;
	153  :   00000000;
	154  :   051eb850;
	155  :   33333332;
	156  :   0008ffbf;
	157  :   7a183b41;
	158  :   71035ff1;
	159  :   00848426;
	15a  :   8074800c;
	15b  :   00000000;
	15c  :   00000000;
	15d  :   00000000;
	15e  :   00000000;
	15f  :   00000000;
	160  :   ffffffbf;
	161  :   00000000;
	162  :   00000000;
	163  :   00000000;
	164  :   051eb850;
	165  :   33333332;
	166  :   0008ffbf;
	167  :   1254e1db;
	168  :   57ddcd89;
	169  :   8d830400;
	16a  :   a0220046;
	16b  :   00000000;
	16c  :   00000000;
	16d  :   00000000;
	16e  :   00000000;
	16f  :   00000000;
	170  :   ffffffbf;
	171  :   00000000;
	172  :   00000000;
	173  :   00000000;
	174  :   051eb850;
	175  :   33333332;
	176  :   0008ffbf;
	177  :   9e646c4f;
	178  :   5885de8a;
	179  :   40008300;
	17a  :   a6582031;
	17b  :   00000000;
	17c  :   00000000;
	17d  :   00000000;
	17e  :   00000000;
	17f  :   00000000;
	180  :   ffffffbf;
	181  :   00000000;
	182  :   00000000;
	183  :   00000000;
	184  :   051eb850;
	185  :   33333332;
	186  :   0008ffbf;
	187  :   80b1eb4d;
	188  :   1e4cc35b;
	189  :   4d0c0092;
	18a  :   21821000;
	18b  :   00000000;
	18c  :   00000000;
	18d  :   00000000;
	18e  :   00000000;
	18f  :   00000000;
	190  :   ffffffbf;
	191  :   00000000;
	192  :   00000000;
	193  :   00000000;
	194  :   051eb850;
	195  :   33333332;
	196  :   0008ffbf;
	197  :   9ac59c90;
	198  :   3f675802;
	199  :   04104201;
	19a  :   c00081f1;
	19b  :   00000000;
	19c  :   00000000;
	19d  :   00000000;
	19e  :   00000000;
	19f  :   00000000;
	1a0  :   ffffffbf;
	1a1  :   00000000;
	1a2  :   00000000;
	1a3  :   00000000;
	1a4  :   051eb850;
	1a5  :   33333332;
	1a6  :   0008ffbf;
	1a7  :   24a0711f;
	1a8  :   2c055643;
	1a9  :   d05e0460;
	1aa  :   51a0a028;
	1ab  :   00000000;
	1ac  :   00000000;
	1ad  :   00000000;
	1ae  :   00000000;
	1af  :   00000000;
	1b0  :   ffffffbf;
	1b1  :   00000000;
	1b2  :   00000000;
	1b3  :   00000000;
	1b4  :   051eb850;
	1b5  :   33333332;
	1b6  :   0008ffbf;
	1b7  :   e3e26da3;
	1b8  :   145bd585;
	1b9  :   00050040;
	1ba  :   20a00842;
	1bb  :   00000000;
	1bc  :   00000000;
	1bd  :   00000000;
	1be  :   00000000;
	1bf  :   00000000;
	1c0  :   ffffffbf;
	1c1  :   00000000;
	1c2  :   00000000;
	1c3  :   00000000;
	1c4  :   051eb850;
	1c5  :   33333332;
	1c6  :   0008ffbf;
	1c7  :   06208ca3;
	1c8  :   5277143a;
	1c9  :   69853244;
	1ca  :   8d08ab41;
	1cb  :   00000000;
	1cc  :   00000000;
	1cd  :   00000000;
	1ce  :   00000000;
	1cf  :   00000000;
	1d0  :   ffffffbf;
	1d1  :   00000000;
	1d2  :   00000000;
	1d3  :   00000000;
	1d4  :   051eb850;
	1d5  :   33333332;
	1d6  :   0008ffbf;
	1d7  :   6e2ba6ed;
	1d8  :   eaaf5351;
	1d9  :   80940800;
	1da  :   0140848a;
	1db  :   00000000;
	1dc  :   00000000;
	1dd  :   00000000;
	1de  :   00000000;
	1df  :   00000000;
	1e0  :   ffffffbf;
	1e1  :   00000000;
	1e2  :   00000000;
	1e3  :   00000000;
	1e4  :   051eb850;
	1e5  :   33333332;
	1e6  :   0008ffbf;
	1e7  :   9641a6b7;
	1e8  :   133e3f19;
	1e9  :   21000008;
	1ea  :   80c040c0;
	1eb  :   00000000;
	1ec  :   00000000;
	1ed  :   00000000;
	1ee  :   00000000;
	1ef  :   00000000;
	1f0  :   ffffffbf;
	1f1  :   00000000;
	1f2  :   00000000;
	1f3  :   00000000;
	1f4  :   051eb850;
	1f5  :   33333332;
	1f6  :   0008ffbf;
	1f7  :   50018671;
	1f8  :   1126afe5;
	1f9  :   051a410a;
	1fa  :   4090400a;
	1fb  :   00000000;
	1fc  :   00000000;
	1fd  :   00000000;
	1fe  :   00000000;
	1ff  :   00000000;
	200  :   ffffffbf;
	201  :   00000000;
	202  :   00000000;
	203  :   00000000;
	204  :   051eb850;
	205  :   33333332;
	206  :   0008ffbf;
	207  :   146c550a;
	208  :   4e967485;
	209  :   2992aa70;
	20a  :   30210a78;
	20b  :   00000000;
	20c  :   00000000;
	20d  :   00000000;
	20e  :   00000000;
	20f  :   00000000;
	210  :   ffffffbf;
	211  :   00000000;
	212  :   00000000;
	213  :   00000000;
	214  :   051eb850;
	215  :   33333332;
	216  :   0008ffbf;
	217  :   37bdc656;
	218  :   f104e7f3;
	219  :   80022980;
	21a  :   0c19080c;
	21b  :   00000000;
	21c  :   00000000;
	21d  :   00000000;
	21e  :   00000000;
	21f  :   00000000;
	220  :   ffffffbf;
	221  :   00000000;
	222  :   00000000;
	223  :   00000000;
	224  :   051eb850;
	225  :   33333332;
	226  :   0008ffbf;
	227  :   8dc61af2;
	228  :   61d3bd8d;
	229  :   5038c401;
	22a  :   8c040042;
	22b  :   00000000;
	22c  :   00000000;
	22d  :   00000000;
	22e  :   00000000;
	22f  :   00000000;
	230  :   ffffffbf;
	231  :   00000000;
	232  :   00000000;
	233  :   00000000;
	234  :   051eb850;
	235  :   33333332;
	236  :   0008ffbf;
	237  :   aed1b126;
	238  :   8fb33680;
	239  :   40200e99;
	23a  :   60408866;
	23b  :   00000000;
	23c  :   00000000;
	23d  :   00000000;
	23e  :   00000000;
	23f  :   00000000;
	240  :   ffffffbf;
	241  :   00000000;
	242  :   00000000;
	243  :   00000000;
	244  :   051eb850;
	245  :   33333332;
	246  :   0008ffbf;
	247  :   90f7d2b3;
	248  :   36720dd2;
	249  :   0d082c04;
	24a  :   49811005;
	24b  :   00000000;
	24c  :   00000000;
	24d  :   00000000;
	24e  :   00000000;
	24f  :   00000000;
	250  :   ffffffbf;
	251  :   00000000;
	252  :   00000000;
	253  :   00000000;
	254  :   051eb850;
	255  :   33333332;
	256  :   0008ffbf;
	257  :   37c5e446;
	258  :   15a592c0;
	259  :   c01a03b9;
	25a  :   220a0909;
	25b  :   00000000;
	25c  :   00000000;
	25d  :   00000000;
	25e  :   00000000;
	25f  :   00000000;
	260  :   ffffffbf;
	261  :   00000000;
	262  :   00000000;
	263  :   00000000;
	264  :   051eb850;
	265  :   33333332;
	266  :   0008ffbf;
	267  :   ce7f2994;
	268  :   9bf68949;
	269  :   11001242;
	26a  :   40095636;
	26b  :   00000000;
	26c  :   00000000;
	26d  :   00000000;
	26e  :   00000000;
	26f  :   00000000;
	270  :   ffffffbf;
	271  :   00000000;
	272  :   00000000;
	273  :   00000000;
	274  :   051eb850;
	275  :   33333332;
	276  :   0008ffbf;
	277  :   62ca7778;
	278  :   fe99a510;
	279  :   84150002;
	27a  :   004608c5;
	27b  :   00000000;
	27c  :   00000000;
	27d  :   00000000;
	27e  :   00000000;
	27f  :   00000000;
	280  :   ffffffbf;
	281  :   00000000;
	282  :   00000000;
	283  :   00000000;
	284  :   051eb850;
	285  :   33333332;
	286  :   0008ffbf;
	287  :   9384b2cb;
	288  :   9831bc2a;
	289  :   60780824;
	28a  :   030c0005;
	28b  :   00000000;
	28c  :   00000000;
	28d  :   00000000;
	28e  :   00000000;
	28f  :   00000000;
	290  :   ffffffbf;
	291  :   00000000;
	292  :   00000000;
	293  :   00000000;
	294  :   051eb850;
	295  :   33333332;
	296  :   0008ffbf;
	297  :   cf128cc0;
	298  :   62c583cc;
	299  :   00804005;
	29a  :   85221431;
	29b  :   00000000;
	29c  :   00000000;
	29d  :   00000000;
	29e  :   00000000;
	29f  :   00000000;
	2a0  :   ffffffbf;
	2a1  :   00000000;
	2a2  :   00000000;
	2a3  :   00000000;
	2a4  :   051eb850;
	2a5  :   33333332;
	2a6  :   0008ffbf;
	2a7  :   2080b392;
	2a8  :   eac23da1;
	2a9  :   4d5e0041;
	2aa  :   05100050;
	2ab  :   00000000;
	2ac  :   00000000;
	2ad  :   00000000;
	2ae  :   00000000;
	2af  :   00000000;
	2b0  :   ffffffbf;
	2b1  :   00000000;
	2b2  :   00000000;
	2b3  :   00000000;
	2b4  :   051eb850;
	2b5  :   33333332;
	2b6  :   0008ffbf;
	2b7  :   5b7845a0;
	2b8  :   61e2c7b4;
	2b9  :   8082005e;
	2ba  :   900c2843;
	2bb  :   00000000;
	2bc  :   00000000;
	2bd  :   00000000;
	2be  :   00000000;
	2bf  :   00000000;
	2c0  :   ffffffbf;
	2c1  :   00000000;
	2c2  :   00000000;
	2c3  :   00000000;
	2c4  :   051eb850;
	2c5  :   33333332;
	2c6  :   0008ffbf;
	2c7  :   940fb0d6;
	2c8  :   c45e7435;
	2c9  :   6ac04220;
	2ca  :   112001c8;
	2cb  :   00000000;
	2cc  :   00000000;
	2cd  :   00000000;
	2ce  :   00000000;
	2cf  :   00000000;
	2d0  :   ffffffbf;
	2d1  :   00000000;
	2d2  :   00000000;
	2d3  :   00000000;
	2d4  :   051eb850;
	2d5  :   33333332;
	2d6  :   0008ffbf;
	2d7  :   f64a250f;
	2d8  :   4f68eea7;
	2d9  :   010040d0;
	2da  :   a0921058;
	2db  :   00000000;
	2dc  :   00000000;
	2dd  :   00000000;
	2de  :   00000000;
	2df  :   00000000;
	2e0  :   ffffffbf;
	2e1  :   00000000;
	2e2  :   00000000;
	2e3  :   00000000;
	2e4  :   051eb850;
	2e5  :   33333332;
	2e6  :   0008ffbf;
	2e7  :   408ddab9;
	2e8  :   77154518;
	2e9  :   9f500142;
	2ea  :   8060b023;
	2eb  :   00000000;
	2ec  :   00000000;
	2ed  :   00000000;
	2ee  :   00000000;
	2ef  :   00000000;
	2f0  :   ffffffbf;
	2f1  :   00000000;
	2f2  :   00000000;
	2f3  :   00000000;
	2f4  :   051eb850;
	2f5  :   33333332;
	2f6  :   0008ffbf;
	2f7  :   bf46cce1;
	2f8  :   72bb78e8;
	2f9  :   40280204;
	2fa  :   04040114;
	2fb  :   00000000;
	2fc  :   00000000;
	2fd  :   00000000;
	2fe  :   00000000;
	2ff  :   00000000;
	300  :   ffffffbf;
	301  :   00000000;
	302  :   00000000;
	303  :   00000000;
	304  :   051eb850;
	305  :   33333332;
	306  :   0008ffbf;
	307  :   a88891cd;
	308  :   66b879ef;
	309  :   15122c00;
	30a  :   99450210;
	30b  :   00000000;
	30c  :   00000000;
	30d  :   00000000;
	30e  :   00000000;
	30f  :   00000000;
	310  :   ffffffbf;
	311  :   00000000;
	312  :   00000000;
	313  :   00000000;
	314  :   051eb850;
	315  :   33333332;
	316  :   0008ffbf;
	317  :   694e1fa6;
	318  :   bf825aee;
	319  :   94a10049;
	31a  :   0018a011;
	31b  :   00000000;
	31c  :   00000000;
	31d  :   00000000;
	31e  :   00000000;
	31f  :   00000000;
	320  :   ffffffbf;
	321  :   00000000;
	322  :   00000000;
	323  :   00000000;
	324  :   051eb850;
	325  :   33333332;
	326  :   0008ffbf;
	327  :   ed163339;
	328  :   d2da5868;
	329  :   0029cc80;
	32a  :   24258280;
	32b  :   00000000;
	32c  :   00000000;
	32d  :   00000000;
	32e  :   00000000;
	32f  :   00000000;
	330  :   ffffffbf;
	331  :   00000000;
	332  :   00000000;
	333  :   00000000;
	334  :   051eb850;
	335  :   33333332;
	336  :   0008ffbf;
	337  :   0ff15e50;
	338  :   5abaadb6;
	339  :   b00820a3;
	33a  :   00045240;
	33b  :   00000000;
	33c  :   00000000;
	33d  :   00000000;
	33e  :   00000000;
	33f  :   00000000;
	340  :   ffffffbf;
	341  :   00000000;
	342  :   00000000;
	343  :   00000000;
	344  :   051eb850;
	345  :   33333332;
	346  :   0008ffbf;
	347  :   b8b305e5;
	348  :   956180a0;
	349  :   07405008;
	34a  :   401c6706;
	34b  :   00000000;
	34c  :   00000000;
	34d  :   00000000;
	34e  :   00000000;
	34f  :   00000000;
	350  :   ffffffbf;
	351  :   00000000;
	352  :   00000000;
	353  :   00000000;
	354  :   051eb850;
	355  :   33333332;
	356  :   0008ffbf;
	357  :   78a28767;
	358  :   1a0798d6;
	359  :   07554090;
	35a  :   e4704600;
	35b  :   00000000;
	35c  :   00000000;
	35d  :   00000000;
	35e  :   00000000;
	35f  :   00000000;
	360  :   ffffffbf;
	361  :   00000000;
	362  :   00000000;
	363  :   00000000;
	364  :   051eb850;
	365  :   33333332;
	366  :   0008ffbf;
	367  :   7dc6f3ac;
	368  :   11a2fddc;
	369  :   00100853;
	36a  :   e4080201;
	36b  :   00000000;
	36c  :   00000000;
	36d  :   00000000;
	36e  :   00000000;
	36f  :   00000000;
	370  :   ffffffbf;
	371  :   00000000;
	372  :   00000000;
	373  :   00000000;
	374  :   051eb850;
	375  :   33333332;
	376  :   0008ffbf;
	377  :   12fe8922;
	378  :   cf22ad5e;
	379  :   68013008;
	37a  :   20044000;
	37b  :   00000000;
	37c  :   00000000;
	37d  :   00000000;
	37e  :   00000000;
	37f  :   00000000;
	380  :   ffffffbf;
	381  :   00000000;
	382  :   00000000;
	383  :   00000000;
	384  :   051eb850;
	385  :   33333332;
	386  :   0008ffbf;
	387  :   72c120a0;
	388  :   323ec62c;
	389  :   083e1d42;
	38a  :   8c4118c2;
	38b  :   00000000;
	38c  :   00000000;
	38d  :   00000000;
	38e  :   00000000;
	38f  :   00000000;
	390  :   ffffffbf;
	391  :   00000000;
	392  :   00000000;
	393  :   00000000;
	394  :   051eb850;
	395  :   33333332;
	396  :   0008ffbf;
	397  :   4f9d8acd;
	398  :   b5abe8cc;
	399  :   00027530;
	39a  :   08441410;
	39b  :   00000000;
	39c  :   00000000;
	39d  :   00000000;
	39e  :   00000000;
	39f  :   00000000;
	3a0  :   ffffffbf;
	3a1  :   00000000;
	3a2  :   00000000;
	3a3  :   00000000;
	3a4  :   051eb850;
	3a5  :   33333332;
	3a6  :   0008ffbf;
	3a7  :   07f95c4c;
	3a8  :   106f691f;
	3a9  :   20042390;
	3aa  :   4c001440;
	3ab  :   00000000;
	3ac  :   00000000;
	3ad  :   00000000;
	3ae  :   00000000;
	3af  :   00000000;
	3b0  :   ffffffbf;
	3b1  :   00000000;
	3b2  :   00000000;
	3b3  :   00000000;
	3b4  :   051eb850;
	3b5  :   33333332;
	3b6  :   0008ffbf;
	3b7  :   24f45832;
	3b8  :   9b9f2557;
	3b9  :   c90a0208;
	3ba  :   40200880;
	3bb  :   00000000;
	3bc  :   00000000;
	3bd  :   00000000;
	3be  :   00000000;
	3bf  :   00000000;
	3c0  :   ffffffbf;
	3c1  :   00000000;
	3c2  :   00000000;
	3c3  :   00000000;
	3c4  :   051eb850;
	3c5  :   33333332;
	3c6  :   0008ffbf;
	3c7  :   d7089114;
	3c8  :   4780f758;
	3c9  :   20734e41;
	3ca  :   207f00a4;
	3cb  :   00000000;
	3cc  :   00000000;
	3cd  :   00000000;
	3ce  :   00000000;
	3cf  :   00000000;
	3d0  :   ffffffbf;
	3d1  :   00000000;
	3d2  :   00000000;
	3d3  :   00000000;
	3d4  :   051eb850;
	3d5  :   33333332;
	3d6  :   0008ffbf;
	3d7  :   9ddd14fe;
	3d8  :   e1aa69bc;
	3d9  :   00228100;
	3da  :   06101443;
	3db  :   00000000;
	3dc  :   00000000;
	3dd  :   00000000;
	3de  :   00000000;
	3df  :   00000000;
	3e0  :   ffffffbf;
	3e1  :   00000000;
	3e2  :   00000000;
	3e3  :   00000000;
	3e4  :   051eb850;
	3e5  :   33333332;
	3e6  :   0008ffbf;
	3e7  :   1c2346fb;
	3e8  :   a00f57d1;
	3e9  :   e3409000;
	3ea  :   48708006;
	3eb  :   00000000;
	3ec  :   00000000;
	3ed  :   00000000;
	3ee  :   00000000;
	3ef  :   00000000;
	3f0  :   ffffffbf;
	3f1  :   00000000;
	3f2  :   00000000;
	3f3  :   00000000;
	3f4  :   051eb850;
	3f5  :   33333332;
	3f6  :   0008ffbf;
	3f7  :   fa28a1e1;
	3f8  :   86ad196d;
	3f9  :   04841808;
	3fa  :   0800c492;
	3fb  :   00000000;
	3fc  :   00000000;
	3fd  :   00000000;
	3fe  :   00000000;
	3ff  :   00000000;
END;